17
81
0A
EF
70
03
5A
06
DB
7F
F6
E7
FE
C8
22
5A
F8
55
25
0F
35
BF
36
2C
16
CD
25
02
23
23
FB
BD
FE
3F
F8
04
81
C8
E8
09
F6
47
FE
02
9C
D7
EB
3E
22
CB
2C
08
59
32
F6
D0
08
2F
EF
F8
D5
CD
E0
16
FB
56
E5
0B
81
D8
C9
50
DD
5F
C9
FA
81
0D
E5
2C
14
1A
0B
FD
19
F4
04
08
06
45
FF
FE
F0
2E
01
4A
B8
9F
96
43
EC
A4
E7
E4
4C
40
A3
79
8F
0B
8B
81
D0
9F
51
2B
CD
89
D8
23
E6
5D
E8
FE
BE
B1
1B
16
23
81
2D
00
1A
27
25
CE
F6
CD
F4
0E
EF
2E
DB
EF
0C
7F
02
F9
EB
10
DD
0E
13
DA
1E
01
FB
2F
FC
FC
0B
00
00
05
ED
1D
FA
FF
E7
68
DF
FF
B9
9C
1C
0F
19
81
1B
15
22
3A
19
CC
0C
BC
EE
F3
F6
2E
D1
F4
F1
4C
C0
14
81
B1
DE
2B
14
D4
0F
0B
DA
D4
05
DA
27
A9
27
10
1C
49
ED
F6
02
6E
FC
EF
CF
CA
03
08
2B
81
2C
0D
18
12
17
C9
09
B6
F9
FE
CB
3D
EA
F3
3D
CF
38
F7
2F
44
F1
BB
FB
5C
E6
F6
81
CE
C9
19
F2
5F
DF
FB
B3
D1
E2
6D
E5
54
EA
F2
B9
AE
14
1B
26
81
25
F7
0F
25
1A
DC
F3
E0
02
F1
F9
2D
DE
E4
1B
90
42
0B
31
40
ED
CC
15
56
FE
10
94
C4
E3
18
FC
6B
D8
00
81
B6
BB
6B
DC
55
F6
11
D1
A7
1D
0C
2D
81
14
F1
0F
17
24
E4
FD
DA
01
EF
F6
33
D2
DF
35
96
1D
E8
5A
37
FB
AE
0D
61
09
FF
C7
D3
E0
0E
DF
7F
D7
14
90
A6
C2
6E
E9
59
EF
F5
A6
9A
15
19
11
81
2D
FE
25
30
14
CF
FA
C9
F3
F4
FC
37
DA
EB
