23
-127
10
-17
112
3
90
6
-37
127
-10
-25
-2
-56
34
90
-8
85
37
15
53
-65
54
44
22
-51
37
2
35
35
-5
-67
-2
63
-8
4
-127
-56
-24
9
-10
71
-2
2
-100
-41
-21
62
34
-53
44
8
89
50
-10
-48
8
47
-17
-8
-43
-51
-32
22
-5
86
-27
11
-127
-40
-55
80
-35
95
-55
-6
-127
13
-27
44
20
26
11
-3
25
-12
4
8
6
69
-1
-2
-16
46
1
74
-72
-97
-106
67
-20
-92
-25
-28
76
64
-93
121
-113
11
-117
-127
-48
-97
81
43
-51
-119
-40
35
-26
93
-24
-2
-66
-79
27
22
35
-127
45
0
26
39
37
-50
-10
-51
-12
14
-17
46
-37
-17
12
127
2
-7
-21
16
-35
14
19
-38
30
1
-5
47
-4
-4
11
0
0
5
-19
29
-6
-1
-25
104
-33
-1
-71
-100
28
15
25
-127
27
21
34
58
25
-52
12
-68
-18
-13
-10
46
-47
-12
-15
76
-64
20
-127
-79
-34
43
20
-44
15
11
-38
-44
5
-38
39
-87
39
16
28
73
-19
-10
2
110
-4
-17
-49
-54
3
8
43
-127
44
13
24
18
23
-55
9
-74
-7
-2
-53
61
-22
-13
61
-49
56
-9
47
68
-15
-69
-5
92
-26
-10
-127
-50
-55
25
-14
95
-33
-5
-77
-47
-30
109
-27
84
-22
-14
-71
-82
20
27
38
-127
37
-9
15
37
26
-36
-13
-32
2
-15
-7
45
-34
-28
27
-112
66
11
49
64
-19
-52
21
86
-2
16
-108
-60
-29
24
-4
107
-40
0
-127
-74
-69
107
-36
85
-10
17
-47
-89
29
12
45
-127
20
-15
15
23
36
-28
-3
-38
1
-17
-10
51
-46
-33
53
-106
29
-24
90
55
-5
-82
13
97
9
-1
-57
-45
-32
14
-33
127
-41
20
-112
-90
-62
110
-23
89
-17
-11
-90
-102
21
25
17
-127
45
-2
37
48
20
-49
-6
-55
-13
-12
-4
55
-38
-21
