-31
-21
36
-23
-122
-16
3
40
11
29
1
54
-42
21
75
-22
-4
62
34
118
97
77
127
8
-44
-23
-85
83
-64
-75
22
-87
9
-47
-86
18
96
-1
-127
101
71
-22
-112
66
73
-90
-4
31
16
-2
105
-42
-10
65
-85
105
-111
-97
-59
14
-43
-127
103
6
107
-53
-91
28
-59
-102
18
89
84
-85
48
38
47
43
59
-1
-20
-91
15
-55
-23
-72
-24
-5
-15
-127
-32
-27
-40
-39
-29
5
-28
-78
-8
13
-127
-9
-8
1
39
-20
10
90
-54
40
82
16
16
123
-4
98
92
101
79
-16
-55
8
33
-10
-98
-39
18
32
-3
35
29
94
-55
45
21
-1
49
76
14
78
94
127
70
17
-102
110
8
-71
-40
-65
-127
22
-23
125
24
67
124
49
75
18
29
10
6
69
46
32
-4
22
-49
-45
18
-22
-99
-7
-33
35
28
-6
41
84
-101
28
20
-13
-3
47
22
127
40
117
74
6
-93
98
-55
-82
-69
-115
-4
-35
-51
-123
-80
-51
127
35
-113
-81
2
66
-61
-8
94
-26
-23
-118
-80
79
-35
-19
20
-74
-44
6
-21
127
5
65
92
54
0
18
15
90
36
10
-28
38
44
-6
-22
-55
-5
-10
-127
2
-49
-3
38
-7
-5
59
-85
62
27
-11
22
50
27
123
40
52
64
13
-19
-26
-5
-78
-127
77
-102
80
-70
-120
8
-124
20
-86
-124
-34
-84
-2
-119
-57
-44
-4
12
-66
-127
118
-77
-107
-52
-68
-84
-10
16
96
0
99
66
84
34
-27
39
81
31
84
41
44
47
7
77
-35
63
37
-24
62
28
-2
9
-92
38
-52
-107
-60
-50
15
16
-81
16
-127
-100
-101
-80
2
60
29
13
44
112
30
62
14
20
-49
25
-56
-72
-61
-2
-27
5
-127
-1
-76
-88
-50
-57
-1
70
-38
41
7
-8
25
1
-17
14
-65
23
-82
-127
-70
-48
11
9
-53
31
-89
-90
-63
-84
6
