E1
EB
24
E9
86
F0
03
28
0B
1D
01
36
D6
15
4B
EA
FC
3E
22
76
61
4D
7F
08
D4
E9
AB
53
C0
B5
16
A9
09
D1
AA
12
60
FF
81
65
47
EA
90
42
49
A6
FC
1F
10
FE
69
D6
F6
41
AB
69
91
9F
C5
0E
D5
81
67
06
6B
CB
A5
1C
C5
9A
12
59
54
AB
30
26
2F
2B
3B
FF
EC
A5
0F
C9
E9
B8
E8
FB
F1
81
E0
E5
D8
D9
E3
05
E4
B2
F8
0D
81
F7
F8
01
27
EC
0A
5A
CA
28
52
10
10
7B
FC
62
5C
65
4F
F0
C9
08
21
F6
9E
D9
12
20
FD
23
1D
5E
C9
2D
15
FF
31
4C
0E
4E
5E
7F
46
11
9A
6E
08
B9
D8
BF
81
16
E9
7D
18
43
7C
31
4B
12
1D
0A
06
45
2E
20
FC
16
CF
D3
12
EA
9D
F9
DF
23
1C
FA
29
54
9B
1C
14
F3
FD
2F
16
7F
28
75
4A
06
A3
62
C9
AE
BB
8D
FC
DD
CD
85
B0
CD
7F
23
8F
AF
02
42
C3
F8
5E
E6
E9
8A
B0
4F
DD
ED
14
B6
D4
06
EB
7F
05
41
5C
36
00
12
0F
5A
24
0A
E4
26
2C
FA
EA
C9
FB
F6
81
02
CF
FD
26
F9
FB
3B
AB
3E
1B
F5
16
32
1B
7B
28
34
40
0D
ED
E6
FB
B2
81
4D
9A
50
BA
88
08
84
14
AA
84
DE
AC
FE
89
C7
D4
FC
0C
BE
81
76
B3
95
CC
BC
AC
F6
10
60
00
63
42
54
22
E5
27
51
1F
54
29
2C
2F
07
4D
DD
3F
25
E8
3E
1C
FE
09
A4
26
CC
95
C4
CE
0F
10
AF
10
81
9C
9B
B0
02
3C
1D
0D
2C
70
1E
3E
0E
14
CF
19
C8
B8
C3
FE
E5
05
81
FF
B4
A8
CE
C7
FF
46
DA
29
07
F8
19
01
EF
0E
BF
17
AE
81
BA
D0
0B
09
CB
1F
A7
A6
C1
AC
06
